14D
2FF
29F
156
15D
001
251
220
215
0F5
035
0EA
023
138
0FC
37F
262
3A5
2A2
0E8
330
2D4
313
0FE
3DD
13D
07C
0E6
1A2
3C9
298
120
2F6
3AA
3A9
026
03A
1C4
0B0
328
37A
006
337
2AA
2BE
3B5
2A3
1E3
36C
25A
35B
185
0B3
1CC
073
2D3
364
04A
353
19E
345
156
178
297
13C
0D2
1A7
348
043
077
1B7
130
2CB
13E
299
31F
1D4
370
3A6
2ED
303
1E3
157
2A7
2A6
15B
3BB
284
09E
038
344
3FD
3AD
3FE
276
35A
