2E8000EFFD4FF35FEEC00DAFFA0FFCF
31B002E0094FF3EFF88FFDB0023002D
3EC0100FF1F00F2FF1AFF07FFA400A0
2FBFFCFFF200122001E005BFEB5FFFA
1050016FF3300BCFF8E0035FFDCFF3E
3C800BDFF5E0029FFE400DDFEFB005D
37700D9FFD0FED4004EFF97FEC90096
03E001C00CEFEDC0110FF310020003A
0CA0112012700B2006300D3FF450021
050FEF2013D00E7001EFF63FF5CFFEF
02EFF4A00CA00680053010DFEF6FF2C
0EEFF9900B7FED900DD00DC0002FF74
024FF79FFC60014006E0100FED9FEEE
331FF9FFFC2FF67FF16FEFCFFB2005A
09300DC003E010CFF9C0002FF8F00EC
3B900C60137FFC40073FEDBFF800043
074FFBCFFABFFA5FFF1FF3AFF8800C0
0510080FF53FFEBFFE6FF98FF29FFBB
02E002300D0FFD4FFC4FFC8FFA50013
08700C7FFE50031008000E0006A0060
334FF9C0121FEF4FF74FFBDFF64FFB7
088FEF200F3FFC0002D00E000F3FF56
2EB000AFF71FFAD00A70087FF9D0034
046FEF8FEF9FFCAFFD4006DFFDE00CC
3670109012EFF1FFF750064FFE60034
07C006EFECCFFB50116FEDE000DFF0C
38EFEC8FF6C00E5005A002AFF37FFAA
2F8FFB8008DFFBFFFE5FEF9FEDF00A2
0D8FF32FFB5FED000EA0094FF4AFF89
004FF56FF52FF9DFFE00090002200F4
