02A
324
162
277
088
0C5
28B
008
260
012
381
35A
114
329
190
2C6
121
195
0F1
046
073
142
119
085
0DB
10C
16F
103
01D
08E
0F9
30C
2CA
159
289
2CC
1E3
301
07E
3D5
2EC
1D2
28D
277
041
19F
048
0FF
34E
088
3A2
117
298
364
39F
197
1AC
153
3AF
16D
023
298
081
057
135
127
3E2
0C2
32E
35B
35F
2BC
1E8
357
2EB
283
118
041
046
16E
0B9
33C
36C
054
3A7
2DD
144
2C5
3CC
337
152
0B9
191
068
0FD
19D
