0C30062FF3E00FF0006FF6EFF02009F
0D0FEEC001D01220031FF1EFEC6001A
054FF6700340039FF00FF73005BFF45
0C2FEDA00C7FF5A0010FF9F00960061
0F000C9001B00CD00B3FFDFFF9BFF3D
03EFFD8FFEF010C00A1FF1AFF55FFE1
01F00D80033006E004C00FAFF4CFFD4
0A1000000FC00AEFFB8FFECFF52FF2F
2FF0000FFDF00D5009F0063012200FE
0670025008500F9015C005B001CFF06
0FDFF9C0015FED7FFBD00120049FFD7
109FFB8FF33FFCB0010FF0900BC00F8
30300BFFFE9FEF2FF83FF53FF8A0089
064FF5D006F0019010F002BFF4F00C4
001007CFEF2008FFF4AFF870027FFA1
3D8002BFF04FF9BFEF2FF5BFF63FFB1
0FE009EFFDC00F6FFC3FF28FEEC003C
0BBFEF9FF00FF460016FF66FEF9FFB3
09DFF5300BF0016FEECFF6E001E0120
09E008D00F8FF53000AFF02FF360135
35700ADFFFC0084FFCDFF99FF440071
370001B0043FF9900A900A5FEF1002D
043FFF7FFF0FFBA0020011DFF9D00F9
0CDFF4E00E700CDFF4400970109FF3D
35D0058FEBE0120007000BFFF07FF86
092FF87FFC4002B00060009FFE4012B
020FF670137FF860063005D00FF0033
3BF00F4FF55001F00EC00BBFFBE0064
3B6006D00EE0056FF3400B60066FF57
0ABFFD9FF770078004AFFDF0081FF4C
